2B03A
34D82
3BC49
3FE36
31368
035EF
0DCBC
11DCB
101B6
3C96C
13EC2
1640A
1A044
170B7
0ED2A
0CD53
144D6
10C65
11323
079F4
3CA34
001FF
3CE3D
3DD58
2D50D
10842
08917
0489C
09F4C
0F4D3
3A3B4
36067
370C7
3D51F
0B092
30204
2A042
3007A
3C147
01BAA
308B9
31BD0
31ED4
3AE8A
3F2FC
3C6A4
3DD15
03BC3
09669
053E0
22145
2B75A
2F9E4
3534E
31C51
3202C
03845
0DA1A
0BE0A
3C624
3EA31
13DA3
16709
1386E
0956C
00F10
12FC0
168C7
165D0
13092
32277
07B70
0E196
0C900
0422B
1135F
0F240
0C0D1
3E5BB
389B9
1603F
173BA
13D7B
07278
3A623
1040B
13210
0F29A
03B51
3688D
01810
04F2B
3DF8D
308E8
34F38
2B98D
2A1C3
2C98F
311AF
02442
1FF41
1029B
056CD
3F2AA
08254
068D5
36B0A
2F3A6
31F7A
01525
3A287
2EDBB
2B05B
29891
3A823
3BA0D
2CDD8
295C1
2A558
2B9E8
06633
37385
347C6
332AA
0006B
1C537
139C6
12196
0FA50
077BC
161B1
0B9BA
02347
3A918
3C044
0D00A
3DDD5
34B41
33509
362D5
0179F
38D5F
2F977
2D413
312B4
00C21
37106
2DF32
2706C
2F672

