3F7A5
3CC85
3CBAC
3B1A4
3DAAC
3E6CF
3E154
39D3D
3D466
013BB
3E2F5
3A763
3A46A
00D2E
02D17
3CC06
39744
3DC94
0383F
01255
3A97D
3E1CC
02CAD
042BE
3E7D0
3E4E3
07572
03860
3CDF6
36A88
05FF7
0DA74
0AD0A
059AC
3FE8C
094D6
0C148
096C2
052D7
0541C
052E6
037D4
3DE52
3EC61
3BC52
3A453
3A6C9
3BF2E
3D411
3D399
39000
3AA74
36ABA
396C7
3AD74
3E9FA
3C956
3FECD
0015D
3BC9C
0903E
08468
0273A
002EA
3D379
3CF52
3DC82
3EF96
3CD4D
3E819
3F93B
06A2C
06FEA
04549
06209
3C1B1
3D055
3EFBD
01BC3
3D958
386C6
322DE
2FAC5
31158
32BF8
3E698
3E459
3EB21
3BEA0
3D095
04A6A
08667
08781
07D3C
02751
3AA01
3CDFB
3D823
00245
002F5
37E2D
3241D
30BC5
35DD5
374FE
03699
3BEA6
3321D
33F74
36688
08378
0ADB9
07AFB
036F5
00AA9
0076D
02579
04045
0322F
01DEA
3CD00
39AFE
388F2
3EC43
3F5F9
000AD
06892
3F322
39642
388EB
074EC
0A504
3B410
37FAE
3CBC9
0AA0D
09A15
02E90
3C3BC
3B12D
02B45
0761B
063DA
00CB1
3812E
3C88A
3F11E
02A38
012AE
3BE71
3C880
3B37C
3AF5E
3B26A
3AB84
00F78
02B3F
05F4D
05E45
087DA
00EFA
07F68
08608
06D31
02398
3BF87
3E6B3
3ABCD
3BE2A
3E896
3D189
3B58F
399BC
3A3D0
02400
395E5
3C4DA
3E6B1
00475
00095
3C7CD
39AB7
3ABCC
03BD3
011A6
3B0DB
3AEA4
02417
0B280
3F7A1
3DB36
05267
0C268
0048F
38038
04F1A
074B8
00D36
3BDD9
3A2C1
3BE88
396EB
3B71F
01B00
01B33
03F0C
036D1
03DE8
042EE
031F7
0A1CC
04DD0
3D5D4
3DAA0
3BF3C
068AD
38F8D
39B77
391C9
3F3E8
0039C
36CF4
37346
3A4C2
03C55
389AB
3BF1D
01AE8
03A3C
088B7
37977
38C33
36600
389B0
3DAD6
3AAD9
355E0
33DA4
3D301
3E003
00151
3C3CD
3AB29
3B72E
3E3DF
043B9
3F901
3C8F1
3A95C
3E7EF
33AFC
3956F
350CD
33514
38BB6
31502
3299C
317A2
33820
3CEB4
01EA8
3D3F4
00A50
00E43
017B5
05B76
05AB3
05EEE
07380
02606
00B4E
3D953
3E146
02C10
03114
39D60
39940
3BACD
3D3EE
395FE
37C14
3D58A
064D4
04AC3
34ABC
01D78
056A1
092E3
01C60
36FB8
0C6DC
072E6
04E45
3DC0F
3C02E
0529F
05980
03DC8
3EBE3
3D565
3EF7F
3EFAA
00D90
01560
00248
3EB1B
3F916
040B7
017B3
00458
3E8FE
01BFD
02EDD
3EE46
3B885
3F66A
04C2A
03F60
3BFC8
3BB48
01101
023B3
01351
3C6D1
3FF13
02B74
3EFC9
386C4
01C44
08293
03863
3B359
37384
3BBA5
00FB0
00064
380AC
3BEAD
3E816
3EC6D
05368
3DCB2
01C07
04567
03AF4
04E0A
07219
06AB4
02709
015AD
03BAD
05908
0542F
0848E
04FB8
3F592
3F321
3C175
3BBBC
3F77F
3742E
38C1F
3C893
3DC72
3FCC5
024D1
0494D
005C5
025C9
3FE8F
3DC62
3B16F
393E0
3DCE4
3ADA3
04C11
3E731
3E707
3F021
3D2A7
03E8E
064C7
09945
0BC15
096B3
3AFE5
3A877
3AF4C
3D8AD
3B45F
3AE12
38E4D
36F76
388CF
37C9C
0478D
00661
3D63F
008C1
3D952
02801
077E7
0A49B
088B0
016D0
38DB7
3C405
02A18
0871C
06524
37066
338EA
36060
34B1C
3B4A6
01A97
3C4C8
3A905
3BAA9
3C1DD
05B93
0302E
04D1F
03D70
3F972
00F16
3B7A4
3C646
3EEC6
03B19
3F3B9
32DBD
3BA62
01EB3
03CA1
3D088
31663
376FC
3E8A0
03CD2
3F7E8
38C82
37395
388FC
01B2F
02657
025B0
3B5B7
39CA1
3BBE9
3F1AE
3F48F
01A93
01067
01146
3D15E
3E392
3B9A9
3471F
36291
3D92B
3BC1C
38122
39E79
3B1DA
02DAC
00934
03532
0094A
3F1D3
011C9
02B07
04B6E
03CB0
014BE
02552
3F955
3D96A
006B2
3C452
3E59A
01393
00F12
3EAA6
39DA4
01318
00B2D
3F95D
357ED
3746D
02AAB
3A263
389E5
38840
3FE84
0195D
370AA
3B4D6
0072F
02DCD
3BAA4
3CD4A
3FF73
3DEB9
3E366
3A050
37A5F
3AE67
3C4D3
3DB92
359E1
33AF5
39E1A
3F57C
3F90D
3A11E
3B2D5
02A0D
057AE
3F396
00487
00C2E
01418
03DDB
3FAD5
06649
05EBA
0366E
3E79D
3D5DE
0409E
031F3
089DB
02FB6
026F3
03F4F
05CB7
07B54
02A0D
0122D
3E289
3CBB2
01B82
02D8F
02F4A
3C151
3A8C1
00E48
03366
02286
06473
01E38
00810
08951
02779
05A81
08606
05DCA
09515
02A92
350AE
3BF75
3D9AF
3A8C4
3A063
375DE
36D06
3A48A
3C2BE
38B83
3BD3A
3DCAB
3F3ED
3D22B
3A047
031BD
04940
05238
00FC0
0406C
09619
02DE8
02675
3B9D8
049FE
003A6
3DEE6
3E842
3CB90
09A06
359FE
37F2A
3E358
0144C
067D7
3EFDB
010CC
3A4F3
3E395
01A12
3D5D3
3C56B
3DF20
3E950
3F347
3DBEF
3A605
3BE50
02714
03EB3
3C808
3957E
3D717
03F35
01EB2
3A863
3C42E
03C03
05436
00A78
3BCE6
01449
0358B
00190
3EB55
04169
08405
0615C
3B212
3A044
0A5AC
0C391
0B5F6
037C1
03098
0C6F8
0CC9F
074A5
024D8
0586E
0308C
012BC
3C3BA
3E859
3F820
3DC5B
39082
3CD61
3FDB0
3DED5
3803C
38702
36765
3BDBC
3B872
01B9B
0551E
0753A
05369
3FF3D
084E8
05821
01E06
3BD40
3DA7F
3F41A
3D708
3BE2B
3D296
009D7
0434B
0B35B
087EC
05FF8
0885C
3DBD4
3C32C
3AD3A
3C2A0
3B71F
37811
31208
2F339
30022
35568
033BC
04EA1
0361C
02C21
0286E
065D0
07A0F
0699F
05187
019EA
3AD1D
3AC7D
393B1
3CAD9
3F786
376E7
339C6
2F350
3062B
36FAE
04C09
3D3C4
38D7E
35B9D
3A7E4
08B2E
0E4BD
0D013
065C9
02000
3DE93
01DB4
00898
0051E
3D686
3B72B
3A5F1
3B5AD
3D858
3CE6E
06289
0776F
3CE59
39920
39C7D
0F207
0694A
3B022
38A23
3B5DD
0F27D
05534
01CB9
3E69C
38C98
04F00
04F1E
081A6
3FC8F
39D99
3A7D3
3E5F1
02C73
00404
3E7CB
01165
3CB36
3D779
3FFEB
02679
3FA3A
069A0
0B910
0F66B
0BF9B
3F4A5
05BF0
064CC
03EA8
03B03
39B54
3CB74
3AF90
3E4B2
3F640
3E995
38D7C
38BD8
3AEAA
01938
3D261
3C310
3B853
3DDD5
3BCF4
3AB2D
3AF8D
3EAF3
075AD
3BD4F
3B63B
3D632
0B9C5
0983B
3884D
0075F
0AFDA
08FBD
3E328
36965
065A2
06E52
3E2E7
3BAA4
3B36B
01230
3E322
3FEDE
02BB1
04AE6
08723
04D7B
038A4
02D32
0472C
0A682
01572
3DB90
3B222
3E316
01F94
39322
35A67
37AC9
008FB
3D764
36548
330A5
3CCF4
05C59
32D80
38F49
3F091
3CF3F
04A39
3B84E
36F92
39571
384F2
3C320
3D28C
337A3
3568D
36D67
374A9
04178
3C7CB
35935
36430
3B386
074E3
3FB8D
3A284
3A7FB
3BB54
33A11
35FD7
31EEA
32459
3AAA3
30957
3221A
34647
39738
01387
054D6
06896
06184
06A9B
00ED5
0593B
04D7A
023C5
04BF3
3BC7A
3BDD8
3C0EF
3BF7D
02AC8
3FC21
38FC5
39F98
3DC62
0179F
353EA
3A3CB
3FCE7
06E54
3E88A
331F8
09689
05EBF
07C9F
3A0F0
36FE1
0F5FD
09BFF
03799
3915F
3B8D2
0245F
05185
0336C
3D711
0180A
025C5
3F6E9
3E7C3
3D8D3
3DF4A
005FF
01134
3D555
39E66
3CBBC
01357
0096B
3B3A8
3BAF1
3ED3B
01305
3F252
3B0E7
3E317
02895
3E899
3A52D
39813
02D33
02E48
3C691
3B649
013BF
3EB4C
39C39
3AE03
00ADC
0F548
0846F
379FC
3DC25
08620
0FAF0
0851C
03071
3DA41
0F1B7
080ED
3FE64
3FC2D
39F21
02D7E
3E7EB
3CC7C
3E208
3C86C
01961
3DED5
3794B
3C228
36404
36055
38AB8
394F3
3D20A
0618D
068DB
0BADB
088DD
06371
0602C
031B3
054D4
3F13A
3DC60
3CAF4
38E05
3CB4C
3B5F4
3ED53
38554
3F237
02633
077D1
082A8
36F77
3C2A8
38DA1
3AF9F
3B385
36FEC
371F3
357BE
349C0
38E29
01E35
03D04
03A7E
074FF
07A42
00E6F
07755
0A357
08C6B
08378
386EA
37BDA
3B288
0050F
04BD3
3BC8C
38418
3129F
30B30
33CBA
08CF1
08980
03748
3D8B0
3E078
03E6C
09C68
0C716
0B6D4
09942
3E4A5
05331
01B0E
02184
01907
396B6
3E1EE
05FB1
06DD3
0278A
36BB7
03B26
074F3
3DCE1
3A15F
399A5
06708
0120D
3DAB0
3B34A
3CDCE
04789
04F0E
04735
3D730
38FBB
031BD
08749
07845
3FB77
3A59B
396D1
3535B
36BF6
363B2
3F681
3B466
3A152
3D0CB
3DB17
00E14
3F329
053C6
0E458
0BC26
3DCB9
01B95
0560B
02EC4
03951
3C64A
3EE38
3F0C9
3EBC9
02676
3BA77
3AC8F
00CBB
006A5
01F32
3E457
3E486
3AD02
3C5F1
0267D
01BDD
396BB
3684C
00CA7
0A483
388A9
385B5
020F4
0EB89
04EB3
37B9D
02C5B
0B3AB
022C7
39D86
39825
3A423
36957
36048
39257
3AA50
00405
01555
02138
3D829
3F40D
0982A
0AE58
0287E
3DCA5
0622F
0DDFE
035AF
3911E
3769A
03B29
056BC
3A819
36B69
398D7
013B8
38C48
3E06D
06BE8
08683
367CD
3AA9E
3C723
3CF7B
3E6D5
36E9A
3A5EA
34D10
373DA
39901
3D59A
3DA2F
384BE
398DB
3C1E1
00CE1
026F0
3D0E3
3807E
3AE8E
3C5DF
3E8D5
001FB
3BEA5
3C992
33E0F
35E82
31BF7
2EA25
39F95
3F20D
3634D
3552E
3A61B
01402
0D17D
04022
04BB8
06C7E
099FC
09C7D
08998
02347
04A99
09E1D
02F78
3FE67
3DBBA
3A738
3EC29
39D7C
38749
3EBCB
057CE
0089B
2F86D
39A11
020BA
09E92
3A84C
3F3B2
07B8D
06FC8
05C61
37984
062D4
061A7
04685
02D3E
3CAF6
01035
050E6
025BE
0289C
0031A
3EF97
04CC0
05167
0224C
3E63E
0175C
045CD
02B79
3DB9A
3D001
052E4
04963
3FC99
3D49D
3F28A
04FCB
01E2E
3B79A
3CE4D
01902
3C88E
35BC3
3D268
04902
08555
357DF
34FC7
3316A
381AC
3B318
34DCC
35A86
34D70
3C5EB
3BF51
3CC75
3BFD5
008CE
01311
00FFE
01E55
05B34
05651
035AD
03374
05A2F
05E31
08B53
0421D
055A8
00089
3C5AC
3D4CE
3C912
04C85
3651A
3A963
3EEA8
01441
03A6F
02D62
0221C
0018F
02630
00AD0
3E2F6
38D07
377EB
37981
39FD6
039FE
0295E
02578
02F7F
03B9E
065DB
081ED
0BDAE
0A297
08302
3CE40
3C8A2
3AA42
3B7B8
3E47E
39BC2
356B1
367B4
3773A
3CD64
062AD
01D0D
0182A
01812
3C355
03C7A
0A0C1
0CDFA
09F16
086E0
386A1
3DEDF
041AE
082C6
04997
3501B
304AF
32A4B
368DF
3D5C4
3F7B9
3CC32
3BA01
3C553
3E9FA
0238C
04E0D
03CED
3F1DA
3D9BB
38788
35AD3
01158
02384
03AC5
344F1
34DBC
0240C
01592
015BB
326CE
367DB
3C891
00D45
00C6C
38F08
38D89
38A72
3FB42
03B28
04338
00D02
3A87D
3DB3E
3F817
3F6FA
02AAF
0032E
0041C
010BC
3DD9D
3A2E2
361B9
346CE
33F06
3F96F
38C2F
38DFB
3C544
39CBB
01C9F
043B2
0503A
01697
3E133
02B12
036AA
0626B
03808
3DB84
00EF5
3FF88
02C7E
3F2DD
01FD0
0171B
0344C
3E8C9
37FF2
0138E
03755
01E4A
360F5
367BC
03087
3E223
3885E
36AFF
3CB08
03508
3AF61
38ACF
3CA0C
3FBE3
04858
0218C
051D8
01DC2
3CBC8
3B7E0
3AED7
3B1B9
39D4D
3D49C
3D451
33CB9
3FB0F
01CC9
0316F
3F96A
3A6D1
07AF0
06F3E
055EA
3C384
020A1
08663
095A1
03466
39B00
0EA27
09AD1
047D1
006BB
3A99E
07F4A
0C92C
0B77F
084A3
05F4C
082C7
0F140
0D6D1
059E4
055D7
00C61
068F7
061F4
094C1
07391
3989F
00A30
05BC7
05038
03D43
0E112
06D88
0A191
0BE51
05E58
0926C
0BE57
0A229
089A6
001C6
3E6CC
3BBFE
3B9C4
3CD62
3B2B4
3B7E7
3849B
3A9AC
3A2FD
3F02F
01E80
010AB
00836
3CA47
3CD44
04231
036E2
019A3
01B82
081CE
0328C
00A75
38C65
3F3F7
0A603
3808B
37E76
38D6E
3FF59
06F6F
31542
38403
3B280
03850
0432E
3AF73
3967E
38066
3F29A
3F641
0255F
0182D
005A8
3CDC3
3EC77
0035B
015AC
010BA
3CB56
3E1C6
02737
0324B
3E780
3A9ED
01EE8
03FCB
3FBB9
3BEB1
3C195
04E5B
00946
3B116
3B3F1
00B60
01D6E
3813D
36BC8
39DA5
3BCD5
38CE4
31344
3420D
377D8
3DE90
3073A
32C8C
3CA03
04154
02A86
363D3
3BAA2
0671D
05BB1
3F4AD
3FA48
3F750
05CFE
3FEC0
3B69F
3DD14
048A4
036A6
0322D
3A424
004F8
36D90
369E9
374E6
3C2D2
3DE74
00A80
034D2
076DB
06D26
04E5C
08550
06640
05F3E
01BAD
3CC97
3B5F9
36D64
38DB7
36070
39BBE
3E595
06656
0A68E
0C203
0B8E8
02600
08FB4
09EBA
08EE4
03901
33C71
3281A
3258D
34C5F
397A3
3BD93
000D9
3DE19
3E394
013BD
05ADC
0910F
09303
050B2
01C6B
3F2DB
07C60
097CA
095ED
06C6E
3745E
37BFE
3850E
3ADA3
36C2F
3D117
349BA
32DA1
34F78
3840E
06AE9
055A5
035DE
041A2
00AA0
02540
056E8
06788
02A92
0027C
342F1
3FCF1
07C47
091D2
04ED2
2DF12
3F102
00763
3FFE4
3E41D
2F85C
3E626
366CC
3D58F
00B60
36BFD
3D2FA
3943B
3EA67
04C59
3DA75
029B2
3FC9E
3F9E5
3D1D1
3BC13
3D367
35EED
360C0
333E3
3CBA0
35E81
2FC7C
34604
36222
3D880
3ABBC
3FA0C
06082
0353F
025A1
046E0
037A3
011EA
010A9
3FC00
037F3
02A5E
3F62A
3C37A
3D8E1
3D56F
3AFB0
39E60
0072F
00DA5
3CCC3
363D0
37A6E
040EC
0186D
3A1B2
358BE
00F74
0C528
3C05D
37FA6
01A0F
0B5FA
0AC1F
37640
3FCD8
0745A
077C4
0141B
36575
38B9A
37289
31CBC
358FA
35D1D
3E404
3ECB2
004C2
002F2
3C349
0A73B
0CBAF
080F4
01288
05B3E
10F55
0C786
04C04
3C9EB
0373B
059FA
01A76
39496
3A7C7
06371
01CA3
06AD8
0C1D7
09834
03A2B
09CFC
0AA3D
0CAA5
0A74F
08900
0F635
080B7
08208
06325
00139
07F80
06BCE
08329
051BB
00863
083F3
06B09
0480B
0724C
0AF8B
0939C
0BFEF
07B4E
3F7A8
04460
04688
017BC
39229
3EA91
36CEA
33A1E
3562A
37723
04CAA
06864
05410
05396
01476
06E1B
0A9D3
0A797
03017
00FCF
03167
0542D
00F7E
3E5CC
3FCD8
0298E
3B165
3898E
3BAED
043F3
067EE
2CF5E
34232
3D4B4
0A796
3C957
315ED
3D5C7
00A39
04859
37090
05EB9
04483
01730
00C00
3A08A

