7F44D
7F58A
039DC
008A1
7FFEA
02740
7D78B
7F6B1
7CBE4
7D962
7EBDC
7BE78
7E324
7F8C3
03A87
7C468
7E8E4
051F7
0876E
0CEFA
7E9BF
798D3
6F630
03E34
0E872
79CB8
7C486
7EDD0
09389
7F5A2
00EED
7B308
7B83C
79C5A
7B9D1
03570
77D36
7D631
76FF1
002CB
77B6C
7F6C8
02F20
03BF3
780C0
7AA23
02999
032DC
76933
778E9
754D0
78E3E
7D315
79398
79F0D
783F2
7BC93
7A356
73795
7F91C
73AA2
76DFE
7C51A
026FF
78737
70A1A
728A8
0596D
0087B
7760E
7217B
7F813
01E17
032B7
7C2F4
02E91
7A1D6
0109C
015E8
7EB12
7D3C9
7C493
04789
020DB
7ED04
7943E
7CAFA
77D34
7ED01
0C915
79996
6D98E
08B3B
13D59
09E4D
7F229
7D827
022ED
7E9F4
7DB1F
0427D
7FD2A
776AE
01219
07A1A
729BA
72FC9
02056
05D9A
79D29
7B794
7CC14
7B4BA
075C3
03C44
74BDA
02982
01FAD
7FB6F
7A460
7DFCA
01677
753B6
7F201
7B10A
73289
00D65
0183A
03CF0
08307
04A68
7EEF8
032B5
00713
6EDC7
76456
7F561
72D4C
78DEA
0AB42
76F61
7423C
09BD0
07DAD
02090
00EFB
7ED67
709E7
01333
03DD3
7E39E
76E53
78352
7B332
0576B
09AB7
75534
79065
05B12
092CF
75BFA
6FF46
6EC7E
7154A
7EA58
069AB
7D24C
7F0F1
7A80B
7E478
74153
06651
6D89E
6F2A2
02E4F
0C857
79154
7FEAC
0578E
022E1
7D5ED
077AE
7630B
7BB5E
7F817
7CAA6
7B2B2
7C23D
7B76D
06470
0A24B
01F55
01B72
7BCB1
7EEF6
0231D
02B54
02C16
02813
03507
078B8
01EFA
03562
03F02
03FE0
02005
01A80
7C1E5
75237
70185
73C30
7560E
6F388
064D1
071B7
7248D
6E09D
7C044
6EBEE
7D7B9
7326E
72FEE
7B18A
7E9D2
7EF88
7F32B
7CA60
02387
7ABD3
7C0A2
02D5F
04C83
7294C
71DBE
79D20
7F877
7F710
79933
03BED
02747
78C73
7FD41
7C767
72C34
74740
004DE
79D51
02177
73740
76CEA
7B1CD
7D0CF
7578E
75CD4
7F916
75819
7BB98
7D66A
7A4A2
70908
77BB3
7E4E3
0019A
0AAF7
6BDE7
6EE65
7B847
7B9AD
72E1A
7913E
7D43B
77E11
03E06
7D4A6
7F1A9
7AC4F
10DC8
0B424
020AC
7E39B
0B99E
01A6D
7EC6F
0AC65
7D719
7DC29
7EC08
7C96C
7A58F
7F937
7D1F7
01591
7FDCA
7C431
01ABD
01E2C
00EDC
0BD11
0235E
7EABE
7F38F
7A371
77190
035A2
78BCE
7F8BF
035AD
010C1
01B9C
02BF1
7EB65
01880
08E98
00F47
001AC
7B583
06316
7E8D0
7B09F
7BBC5
0306F
7505F
795EB
7D9F8
00377
13E79
14611
12C8F
7DE43
074F0
7721E
78612
0025E
037E2
03722
7CBCD
087DD
04AA1
08C70
0686A
7BCEA
0412F
07745
00D2E
102CD
00D29
7A1FB
00DA8
0274E
00695
08A61
05694
0BDAE
0D7D9
0C3C5
7EC85
6F1A6
73A22
72EA2
04D3D
79659
7F3A6
14B7E
7FF4D
7F4EA
7BB95
7A268
6D315
72C8B
7E91A
719D5
73527
03A4F
7E8DF
06736
027A3
7E8B5
77180
7BDE6
736EA
07761
72141
79441
7C691
7FA48
7A9E8
003B3
030C7
7C3D6
7B5BB
002BB
05E1A
79AC9
7AEE4
04018
7D857
7F95E
009FE
7ECC4
7B3D9
74CFB
0175A
7AB81
04201
7A9A9
7E950
0B6BA
7A647
04A79
789D6
79F49
065B0
758C0
727D9
7628E
13FEB
03C37
08EC4
03DD4
00B92
7F95C
7E2E2
7BB7A
0AA0C
79354
77B21
7FFD7
061BE
7AAEE
7EAE2
05C11
0037D
0B3AB
199AA
7ED91
70D75
0646F
125E4
7A72C
7D01E
01B12
7AF4A
7C102
7F8B8
79332
7B50B
0BBB4
0DF3D
06CDA
128C2
69604
008E9
101E0
7F7CC
78599
05885
07AE3
7B1DD
028F9
0ABF4
77F3F
76427
0BE5F
12D24
7D7D7
79BFA
77E98
7DE32
78843
78FE3
7900F
75071
08590
03514
70000
7A188
07483
79695
6802E
0542B
7B6C6
7F617
0EC1B
7F9C3
00F00
05931
095BC
7DE8F
7FE89
76457
7C211
06B64
7319F
73D99
04113
064EF
7F16B
7B04F
06DEB
1091C
7A83E
7BCD0
0B492
0E3D9
75A15
75277
012AC
0187D
73EA3
785D2
0EF5C
7389C
78E0E
02DB2
16E1F
07CEE
77AF3
79B65
7FE93
7DDBD
6FA30
792F0
014CC
7A729
73DCF
7513A
0B072
13D28
010C9
08367
00E4D
753AF
7C2A4
7E4C4
75B7E
745E2
786B5
05A46
07E88
7CEFB
785F2
02DDE
7E213
010DA
0F805
0FBA4
7A24B
78C9C
09AC3
00868
7D3E7
0D053
75812
7CB4F
01979
79538
6D614
06047
06980
77118
7E3B7
792BD
02811
7EC93
00A6E
76E52
71448
07CD9
004F3
7721B
7C724
7EF2E
7CD94
02090
7FF35
07560
7BD6F
7BE90
79FF0
78B35
796CD
7D5C6
7E6BF
79BD5
02E23
0875C
7F150
7D60A
064BB
7F211
7FA67
7F9AF
03649
73144
79D31
00F23
057EC
05198
73B9B
7816E
7735E
7F926
059FD
02254
7919B
03885
07D41
789BD
0CBA7
01508
077C1
7D0B2
0866B
01DD8
7FC23
79B62
7CE00
7EC68
7CA09
7DF0C
799D3
7E84F
7A27F
7C505
07E7D
10664
06020
1221F
08D7C
0920A
0CF62
0BFA2
7A87A
0080E
00E76
045BF
71B6A
008A7
7F566
7F142
0B8D2
0D80F
130CD
7F52E
13AD5
0A839
1786F
7C8C9
7F2F7
04478
08E58
038C7
6C974
0173B
7A531
758A9
70903
74898
67B33
6C55E
0715E
7CF5D
05332
70A5A
15DDC
7DFBA
011DB
765D0
052EB
79184
095A3
7B4A8
7FAF4
72725
7835C
0A806
7FB94
79042
78053
0824C
01382
01599
00C9D
06D43
02859
003D2
00CE5
01587
73A25
7A40B
73A9E
6E6A4
6D813
0A4F9
045D7
72474
79D5E
0BE10
7C0A0
79743
7F8CB
0FCCE
7789B
00156
71AD2
750A2
7A915
02ED2
72E19
090D5
7371D
03E16
7801B
05196
75C6F
0201B
72B22
014F2
74A81
75233
749AD
01EFB
0B421
7ADAC
787BE
01055
7B462
0303D
7584F
78FE3
7ACEA
78F8A
6F3A0
70280
793A1
7F263
0FAD9
083F8
04923
01A05
7E762
7ECEB
07BCF
025EE
74F4F
7C8BC
77899
7ECEC
7966E
0585D
726D8
07E8C
7F159
7175B
7EC85
73377
00CA6
06A89
125C9
7BC61
09895
7D9E9
7A6B7
7B64A
00676
7FEC9
7C4E1
02497
7BB0D
01104
7DA8A
022B1
7E358
0229E
7FB68
7C2C4
7FCB8
7D8A0
7E3CE
7E5BD
03C2F
0507E
7E857
7F126
0948E
02A24
7F602
76FA5
7F5C9
77F04
00152
7A945
06D25
05C23
03128
7B50E
09C79
76E40
0551E
7E809
76FE5
7EB0B
7A02F
792C3
69C0C
03FBE
0223F
7CD7C
6F395
7AB81
0C869
7582D
78709
77294
075D3
7A9A3
754E9
78FB9
024BD
031DE
71061
757B2
07E9E
03745
68FB9
7A43D
0394C
04FCE
677B9
73EAA
0CBFB
79BE3
7980C
7BA9E
01BA8
7CB6B
69A32
799F5
0CA45
0173A
6B336
73CC9
08DF5
7FEB0
6CA0E
72016
0D1E2
7800E
09938
02463
78CD4
06F37
0DE4A
77FCC
7ED3F
003CF
0223C
766BE
751A1
0A4B9
0783C
02C64
7ED0A
00134
7D4EE
00484
14F41
76F1D
6F98D
005BE
032CE
765F8
69855
7CCDC
09580
767C0
773B8
6D9AC
0B367
7EDF2
7FD4A
7D1FA
06B15
7E198
7A6B8
7DEA4
7C17D
7668E
0C211
7C271
77D3F
7CE9D
0F109
062BB
03EC3
7B4D0
7DF8B
07D16
7FC2C
771B5
6C80F
7A985
74184
7DBB0
7AB39
0E654
05F08
78EA2
05477
00EE9
7C19F
7BEEB
0426B
0077C
74060
03EB0
11988
7E70F
771D9
7A752
07ACF
79A88
7C948
71273
0F2D7
0A6F8
75358
79AFE
707A8
75AF4
07C99
7B98E
7677B
02CD7
7C9F8
00477
696CF
74AF6
08163
7D88E
77DA6
7952D
065DA
73EDF
7F1A0
7BB85
02EB2
7C1B1
01BB8
7B845
74796
0D3D6
18798
7DC53
05187
7F1F3
20DEB
0B60E
7C274
7B6D6
05209
7F48D
7B3C1
7A098
00B6A
7E2B1
7A194
7C2FC
7CB2C
7987A
7B25D
049AF
7D182
7985E
7B473
0225A
762F9
763C7
03606
025E1
7908A
07A0F
020D1
77E12
001A9
069D0
7A4AA
76F90
03746
060A0
7A8A2
769CF
7A7A8
7B36C
01E3F
7A92E
7F779
060ED
76E86
77F16
088C7
03D01
7CE81
77647
122F1
018DB
00A41
786A5
6F0FB
7FD6F
0D06C
0C062
798F9
05492
04C47
10F43
0B38A
08329
03663
078C0
153FF
0F329
7E806
77620
76E00
08398
13AD2
0525B
79022
06DBC
0BA70
03BEF
090E2
11895
7CFB3
00D9D
1F9BA
17631
77E2D
717AE
0FF00
0593D
79A2E
6DAB4
735CA
7FE13
7E8A2
6B334
610C2
78618
07F9E
76855
688A8
6325E
0B375
7F4B8
73C6E
788B8
02884
1239A
7FE46
00F4C
06861
086C1
7BA85
00F53
7C930
7E849
7AA00
7BC08
01083
7E23C
799B4
003F6
7847D
7EE67
0C5A7
7B849
7DEDB
78A29
7E3BA
76065
65DD2
043CB
02303
72F4A
6A361
777E7
05732
7AD9B
7B1B8
05787
05077
7F16A
7976B
09B22
0A092
7853B
6D819
0045B
21B56
7F44A
629C0
7D029
7C6C0
79082
049A7
79EB2
74E8C
7C947
045AB
76737
00302
023B6
06120
0224C
094A1
11797
78EAD
7F6C5
707A8
7D67C
0AC53
00EF0
08181
7AED1
7FA76
06F91
117C5
09E5D
7F916
06A9E
1614A
11315
6F474
7E969
7CBFF
79672
7F21A
74341
7F0BC
036AB
04903
79638
77025
6CD71
7D9A1
784E4
00645
7FCB5
7B27D
757B3
02498
009B2
02C15
01EB4
06322
028AC
7FEF8
0036C
012D5
01C79
7F2F3
7E340
7F8FC
7E5CB
7E175
00D29
7D006
7F19B
054FC
07418
77AEA
7B806
07688
0B27D
6BA18
7F65C
043C1
08B6D
6FE49
03AC6
07536
7BC61
7CBAB
7B3C9
787D0
01E8D
7C868
7D7C9
78789
0487F
03257
7F83E
7904E
04E94
7E3CA
7892C
7B6B1
018FC
76E77
7765F
72705
7E6A6
719C4
7941F
77A2E
79C44
780C2
02A12
7BC8A
7E007
0C052
07A7D
7A7CE
7E09E
714DC
6FCDE
7EFC6
094FB
6C0C3
713F4
70669
04753
747E0
79857
7E1E7
037EE
0AB58
02ABF
7BD30
00F01
007CD
7ADE5
0579A
05095
775C0
754D3
7B4B7
0295D
6D338
71BCC
7E091
7B72D
73DAC
7B7CA
080C5
7BBC7
7F340
7A2EF
765A1
73D04
742BE
7C610
7A5AC
05A2A
753DC
044B4
002E6
0BC46
7D211
0C3E8
00995
01781
7E29E
03CF4
7A5F2
78E5B
07D36
7E2A1
7D5A8
01094
09D5E
036FA
7B309
7F744
0789F
780E3
76842
01A7D
7D7E9
002F2
027E2
7E34B
00880
048E0
7C9B7
7C604
01441
06C4C
7C6A9
7F1F7
7D24E
0D06A
79D50
7AABD
067ED
00095
76F55
7B319
0B0BE
0225F
79A39
71661
0FBBB
042AE
7CCD7
73A43
05250
77469
7AE32
7836A
74409
6F9A2
6C1B4
7ED30
786F4
78300
77EA7
7C23F
0AD10
7DF62
7BCBD
0400D
13F2F
72AFD
78846
09656
018C2
78668
7E030
0A717
7BA18
7B42E
7E1DB
026F0
7ABFB
74385
755C6
7E8EA
7923A
671DB
03385
7EC23
7FCDE
792AB
7B07F
00F24
7C7FF
0041F
0A0A8
05B25
7B3DF
7F717
7BBEC
04C12
01FB7
7DD7B
7DDC9
04935
04D50
7BDFD
7A778
6E9AB
7B018
72F4B
6C163
786CE
7408B
03DE6
01573
71CD8
76517
7BC1D
0517A
6D518
04427
7EB6C
04F0E
00CCF
0466F
78A69
7738B
00E41
07E54
7774D
05322
776D2
7EACD
7D378
0832D
7F115
07CB9
025A2
055C5
002B5
07C8F
03550
6DD5B
79BF8
08849
0E1C5
76938
02152
7F8C7
0175E
08503
045F4
0EBA5
05F51
08FE8
71CB4
0B8EF
02126
717C2
79447
06F7E
0C9EF
784E7
7AED1
7E591
01665
088C4
79BE9
7916A
7DD38
6E43D
00CFD
769C1
7A847
0645E
04A16
74677
03429
02664
0A035
7B912
004BC
7E547
7A239
03098
09558
7C38B
6CC50
01B18
0CADC
7593B
744E4
02FA1
7F4D6
7E95E
70C19
0673B
7B146
06934
7397C
78CDE
773E5
07393
7C555
75E9A
7B70C
056FB
02F25
7AFA8
7A701
0699C
02827
0303A
033F0
7C9F9
057D9
07B72
78BD7
10F8D
0049A
7F935
7E6EA
12D93
7DF4A
0F0DD
0196F
79B9C
00736
0F36C
03624
7D121
756AE
78805
7A520
120F8
15D16
7EDB6
7810E
00850
04E93
7FC9F
6E17D
0AF99
05631
03363
7C76F
7B479
0785A
03C64
07CB6
04CC1
0B567
05280
13C0B
72D4C
7A614
7D1A8
7D999
7F9A6
08E2D
7FAE9
7AF86
0857D
08926
75C5F
7AB8F
7740B
0283A
6D81F
7F7D9
729B0
7A8CF
79366
003C7
03EBF
7AE44
7D7F5
7BF82
7E58F
754A9
01C41
7B11F
027BC
03519
0015D
7B59C
7C71C
01039
7D03E
7A676
7F8B2
7CED6
7EFB1
7FA80
7C875
7CDFB
02284
0B5D2
0149B
0E5E4
098BF
15A1F
0EA65
0C2B9
0AD06
0C1F7
124F8
0781A
10333
095C8
03B53
018F6
7B948
06628
7FCA7
7EB7B
03D3A
05665
0A8C7
767C6
7ECA1
04646
7C63F
745C3
7947D
0B5D6
76571
7CACD
7743D
7828D
776A8
6E950
7C6B9
78150
7C440
70C84
02F37
7CF2D
00D24
72B7F
7E6FA
02583
00F8D
7A8BC
734A9
0C753
72B0F
78F3C
7AA81
05C22
7EDE6
76996
7D713
7C3D7
04D2B
73D8C
7FB6F
091FB
029A8
728FC
77233
7BF02
7F78E
7BAF5
7825B
02537
78530
09C3F
7CF63
68D53
7C7A0
03F43
047DC
7D311
0581D
01339
7552D
7F697
7D76A
7DC70
79063
769B2
06361
7097C
7D567
01589
0703C
79B3A
788D5
772CF
79EA0
7ED32
7E63C
7EF4D
78C6C
0940D
003A7
66BB8
0444A
06028
7B1F9
7F2A4
000EE
6FE30
76DF9
04D07
09781
76DEA
7D6DE
660AF
77AFB
7F369
7999F
7A0BD
7ABE9
7623D
72D96
79152
7BE67
6D552
7721C
0B241
7C2DF
7228B
05A49
6E9C0
04A53
79129
79B87
6E3F7
6B688
5BEF5
6C937
7AAC3
72447
022D4
773DC
7C427
05F2A
04CC7
6EF50
00BE1
6BC03
69C75
77667
6B0BF
7B74F
6FDF2
7C7EE
78EC9
07B44
6A70C
76589
057E2
735D6
7DCAA
06B43
7FFB0
7E08B
0E9D8
0B372
01F72
099D6
0FA1F
022FB
056E6
06BE7
76B1E
7E7BE
08CC7
7EA95
00F20
00256
02C79
7E99D
7C82E
012AC
043FA
75331
7D0E5
02402
7F4A1
0088F
05F58
7D03F
7D11B
03A84
7E825
742AF
09886
03968
72A38
155E3
02377
00606
79CB4
12E00
73A2C
72E0E
64C2A
02B61
014BB
68186
75868
7BBC4
01CFA
7D1E4
7AB9F
0A03E
08BFE
7B057
044E0
03F12
0871A
787B8
07D99
7A824
03F1B
7D306
7806D
753BF
7062B
7B1FA
12FE4
02F8F
7AFBE
14D0B
0E217
0AAC9
75F37
0BF35
07AF6
06B13
7250E
6E97F
7A635
64148
763DE
027A5
06150
79169
0E6D6
0C71B
07A45
01913
7F45A
7DB0B
00124
7F309
70687
67C1D
7886C
73C99
74855
012FA
02F2E
6DE7B
08CDB
7314C
750C4
79F0C
0C364
02FB6
7A7D8
00E89
06095
7C95F
024C1
7BC4E
76F93
7108A
748F6
0A855
7E31F
00446
7F1CD
0EC95
11A3D
7E4B4
6C475
00192
0AEC2
7463B
6CF65
00219
100D3
6889C
74620
0CB9A
04475
74152
78966
76C98
0A144
7CD34
09F80
6DDA9
72AC4
0A5DB
7F042
00EFC
0B6A4
605F0
6DE48
10775
00BDF
76BC8
7339F
7E46F
73E15
0C706
77A63
71EAC
6E0FC
77FCA
7DDBC
089A8
7AFE3
6BE84
03954
71655
05ADB
7D630
0C0A7
6A3B4
7F7ED
6A858
7E65B
76C9E
7E581
7D34E
00214
70835
71A91
01206
10E02
02528
78662
0AB7D
0D900
09812
75CF5
7C359
0ED9A
75304
79E62
0485C
7C018
7F396
09092
057D0
7E9B5
7B8A2
0912E
1044E
03EAE
68BE6
7D1B0
0B75B
7F89D
64736
7B740
05E3B
7808B

